#pragma once
#include <stdint.h>

// w10_v3
alignas(8) const unsigned char fire_model_data[] = {
0x1c, 0x00, 0x00, 0x00, 0x54, 0x46, 0x4c, 0x33, 0x14, 0x00, 0x20, 0x00, 0x1c, 0x00, 0x18, 0x00,
0x14, 0x00, 0x10, 0x00, 0x0c, 0x00, 0x00, 0x00, 0x08, 0x00, 0x04, 0x00, 0x14, 0x00, 0x00, 0x00,
0x1c, 0x00, 0x00, 0x00, 0x98, 0x00, 0x00, 0x00, 0xf0, 0x00, 0x00, 0x00, 0x20, 0x0a, 0x00, 0x00,
0x30, 0x0a, 0x00, 0x00, 0xfc, 0x15, 0x00, 0x00, 0x03, 0x00, 0x00, 0x00, 0x01, 0x00, 0x00, 0x00,
0x10, 0x00, 0x00, 0x00, 0x00, 0x00, 0x0a, 0x00, 0x10, 0x00, 0x0c, 0x00, 0x08, 0x00, 0x04, 0x00,
0x0a, 0x00, 0x00, 0x00, 0x0c, 0x00, 0x00, 0x00, 0x1c, 0x00, 0x00, 0x00, 0x3c, 0x00, 0x00, 0x00,
0x0f, 0x00, 0x00, 0x00, 0x73, 0x65, 0x72, 0x76, 0x69, 0x6e, 0x67, 0x5f, 0x64, 0x65, 0x66, 0x61,
0x75, 0x6c, 0x74, 0x00, 0x01, 0x00, 0x00, 0x00, 0x04, 0x00, 0x00, 0x00, 0x90, 0xff, 0xff, 0xff,
0x0a, 0x00, 0x00, 0x00, 0x04, 0x00, 0x00, 0x00, 0x08, 0x00, 0x00, 0x00, 0x6f, 0x75, 0x74, 0x70,
0x75, 0x74, 0x5f, 0x30, 0x00, 0x00, 0x00, 0x00, 0x01, 0x00, 0x00, 0x00, 0x04, 0x00, 0x00, 0x00,
0xc6, 0xf5, 0xff, 0xff, 0x04, 0x00, 0x00, 0x00, 0x0f, 0x00, 0x00, 0x00, 0x6b, 0x65, 0x72, 0x61,
0x73, 0x5f, 0x74, 0x65, 0x6e, 0x73, 0x6f, 0x72, 0x5f, 0x37, 0x35, 0x00, 0x02, 0x00, 0x00, 0x00,
0x34, 0x00, 0x00, 0x00, 0x04, 0x00, 0x00, 0x00, 0xdc, 0xff, 0xff, 0xff, 0x0d, 0x00, 0x00, 0x00,
0x04, 0x00, 0x00, 0x00, 0x13, 0x00, 0x00, 0x00, 0x43, 0x4f, 0x4e, 0x56, 0x45, 0x52, 0x53, 0x49,
0x4f, 0x4e, 0x5f, 0x4d, 0x45, 0x54, 0x41, 0x44, 0x41, 0x54, 0x41, 0x00, 0x08, 0x00, 0x0c, 0x00,
0x08, 0x00, 0x04, 0x00, 0x08, 0x00, 0x00, 0x00, 0x0c, 0x00, 0x00, 0x00, 0x04, 0x00, 0x00, 0x00,
0x13, 0x00, 0x00, 0x00, 0x6d, 0x69, 0x6e, 0x5f, 0x72, 0x75, 0x6e, 0x74, 0x69, 0x6d, 0x65, 0x5f,
0x76, 0x65, 0x72, 0x73, 0x69, 0x6f, 0x6e, 0x00, 0x0e, 0x00, 0x00, 0x00, 0x2c, 0x09, 0x00, 0x00,
0x24, 0x09, 0x00, 0x00, 0x04, 0x09, 0x00, 0x00, 0xb4, 0x08, 0x00, 0x00, 0x64, 0x08, 0x00, 0x00,
0x54, 0x06, 0x00, 0x00, 0xc4, 0x05, 0x00, 0x00, 0xb4, 0x00, 0x00, 0x00, 0xac, 0x00, 0x00, 0x00,
0xa4, 0x00, 0x00, 0x00, 0x9c, 0x00, 0x00, 0x00, 0x94, 0x00, 0x00, 0x00, 0x74, 0x00, 0x00, 0x00,
0x04, 0x00, 0x00, 0x00, 0x7a, 0xf6, 0xff, 0xff, 0x04, 0x00, 0x00, 0x00, 0x60, 0x00, 0x00, 0x00,
0x0c, 0x00, 0x00, 0x00, 0x08, 0x00, 0x0e, 0x00, 0x08, 0x00, 0x04, 0x00, 0x08, 0x00, 0x00, 0x00,
0x10, 0x00, 0x00, 0x00, 0x28, 0x00, 0x00, 0x00, 0x00, 0x00, 0x06, 0x00, 0x08, 0x00, 0x04, 0x00,
0x06, 0x00, 0x00, 0x00, 0x04, 0x00, 0x00, 0x00, 0x01, 0x00, 0x00, 0x00, 0xeb, 0x03, 0x00, 0x00,
0x0c, 0x00, 0x18, 0x00, 0x14, 0x00, 0x10, 0x00, 0x0c, 0x00, 0x04, 0x00, 0x0c, 0x00, 0x00, 0x00,
0xb7, 0x14, 0x41, 0x3e, 0x0c, 0x84, 0xef, 0x15, 0x02, 0x00, 0x00, 0x00, 0x02, 0x00, 0x00, 0x00,
0x04, 0x00, 0x00, 0x00, 0x06, 0x00, 0x00, 0x00, 0x32, 0x2e, 0x32, 0x30, 0x2e, 0x30, 0x00, 0x00,
0xe6, 0xf6, 0xff, 0xff, 0x04, 0x00, 0x00, 0x00, 0x10, 0x00, 0x00, 0x00, 0x31, 0x2e, 0x31, 0x34,
0x2e, 0x30, 0x00, 0x00, 0x00, 0x00, 0x00, 0x00, 0x00, 0x00, 0x00, 0x00, 0xd0, 0xf6, 0xff, 0xff,
0xd4, 0xf6, 0xff, 0xff, 0xd8, 0xf6, 0xff, 0xff, 0xdc, 0xf6, 0xff, 0xff, 0x12, 0xf7, 0xff, 0xff,
0x04, 0x00, 0x00, 0x00, 0x00, 0x05, 0x00, 0x00, 0x19, 0xf1, 0xe9, 0xfa, 0x94, 0xea, 0xd5, 0x0a,
0x11, 0xd9, 0x20, 0xf7, 0x1b, 0x22, 0x3d, 0xf5, 0xe6, 0x14, 0xf7, 0xf9, 0xcf, 0xfc, 0x15, 0xca,
0xb7, 0xf9, 0x0a, 0xda, 0xc4, 0x12, 0xf8, 0xe3, 0x81, 0xd6, 0xa1, 0xd3, 0x11, 0x28, 0x3c, 0x0f,
0x01, 0xd9, 0x54, 0xfa, 0xe7, 0xe8, 0x40, 0x4a, 0xd8, 0x07, 0x09, 0x0d, 0x3d, 0x60, 0xfc, 0xad,
0xc6, 0xa5, 0xe5, 0x1d, 0xcd, 0x3a, 0x52, 0xda, 0x2e, 0x66, 0x2f, 0xd9, 0xc5, 0xac, 0x20, 0xc1,
0xef, 0x71, 0xfe, 0xea, 0x0f, 0x81, 0x15, 0xe8, 0x05, 0xdc, 0x22, 0xd1, 0xd3, 0x17, 0xff, 0xdf,
0xcc, 0x0f, 0x15, 0x12, 0xe8, 0x08, 0xd2, 0x0a, 0xe8, 0x07, 0x23, 0xeb, 0x09, 0x31, 0x21, 0x03,
0x81, 0xd0, 0xb1, 0xbb, 0xf3, 0x23, 0x17, 0xe6, 0xbf, 0xe7, 0x0a, 0xda, 0xcf, 0xd4, 0x05, 0xcd,
0xca, 0x0e, 0x36, 0xe6, 0xb9, 0x9e, 0x35, 0xc6, 0xfa, 0xd6, 0x30, 0xd7, 0x23, 0x00, 0x22, 0xf5,
0xf6, 0xf1, 0x27, 0xe6, 0xbf, 0x25, 0xda, 0x01, 0xdc, 0x99, 0x1c, 0x1d, 0xd4, 0x3c, 0x4f, 0x45,
0x45, 0x00, 0xf8, 0xf8, 0xf4, 0x7f, 0x22, 0xea, 0x05, 0x61, 0xcf, 0xfc, 0x17, 0x57, 0xca, 0x48,
0xf5, 0x0c, 0x08, 0x51, 0x06, 0x6a, 0xde, 0x09, 0x05, 0x2c, 0xea, 0xe1, 0x21, 0x3d, 0xd3, 0x13,
0xec, 0x55, 0x03, 0xfc, 0x03, 0x5e, 0x0a, 0x4f, 0x4e, 0x7f, 0xb8, 0x43, 0x4c, 0x70, 0x82, 0x5f,
0x81, 0xd1, 0xe5, 0xe4, 0xc6, 0x1b, 0xe5, 0xe1, 0x1b, 0x38, 0x01, 0x1e, 0x08, 0xe0, 0x00, 0xe8,
0xc3, 0x0c, 0x25, 0xdb, 0xdf, 0xfc, 0xfc, 0xf2, 0xe2, 0xf1, 0xf4, 0xf2, 0xf1, 0xce, 0xf1, 0xee,
0xc4, 0x09, 0x17, 0x08, 0x08, 0x29, 0x2f, 0xeb, 0x98, 0xfb, 0xdd, 0xa3, 0x20, 0x01, 0x3e, 0x01,
0xa3, 0xdc, 0xf6, 0xa9, 0xd0, 0x35, 0x05, 0x08, 0xe8, 0xfa, 0xf0, 0x81, 0xdb, 0x02, 0xe8, 0x90,
0xfa, 0xe9, 0xd2, 0x9c, 0xe0, 0x1a, 0xd2, 0xb2, 0x2e, 0xed, 0x45, 0xc4, 0xdb, 0x46, 0x05, 0x8e,
0x2e, 0x6a, 0x7f, 0x48, 0x08, 0xed, 0xe6, 0x0f, 0xf1, 0x08, 0x02, 0xfe, 0xb2, 0x0c, 0xdc, 0x04,
0xe3, 0xe3, 0xe1, 0xf9, 0xca, 0xe7, 0xbd, 0x18, 0xfd, 0xfa, 0x38, 0xfa, 0xc8, 0xf0, 0xd7, 0x04,
0xd0, 0xf1, 0xbf, 0xd3, 0xed, 0xc5, 0xe1, 0xf1, 0xe2, 0x0d, 0xfe, 0x41, 0xf2, 0xc4, 0x3a, 0x69,
0xf7, 0x19, 0x09, 0x64, 0xd3, 0x04, 0x05, 0x7f, 0xd7, 0xf5, 0xf7, 0x32, 0xd0, 0xdb, 0x3a, 0x7c,
0xde, 0xc1, 0x29, 0x51, 0xc7, 0xc6, 0x06, 0x6d, 0xca, 0xdd, 0x22, 0x5b, 0xe0, 0x14, 0xfc, 0x22,
0x3a, 0x01, 0xfe, 0xde, 0xed, 0x05, 0xe3, 0xee, 0x1e, 0x06, 0xff, 0xd1, 0x35, 0x1c, 0x44, 0xe7,
0x2b, 0x12, 0x1e, 0xe3, 0x16, 0x08, 0x3c, 0x9d, 0x46, 0xff, 0xfb, 0xea, 0x3f, 0x17, 0x26, 0xbb,
0x08, 0xfe, 0x4e, 0x81, 0x0c, 0x07, 0x0b, 0xc5, 0x3a, 0x0a, 0xe5, 0x46, 0x12, 0x0a, 0xf9, 0x62,
0x12, 0xfd, 0xd9, 0x7f, 0xfc, 0x1d, 0xec, 0x4d, 0x04, 0x18, 0x03, 0x43, 0x16, 0x2d, 0xe4, 0x4b,
0x1c, 0x1b, 0xdd, 0x74, 0x2a, 0x17, 0xeb, 0x78, 0x1d, 0x2d, 0xdc, 0x52, 0x39, 0x28, 0xd0, 0x53,
0x19, 0xf4, 0x1f, 0xf8, 0x04, 0xf4, 0x0c, 0x7f, 0x05, 0xfe, 0x0a, 0x5a, 0x04, 0x01, 0x15, 0x58,
0x25, 0xf3, 0x21, 0x5a, 0x19, 0xfb, 0x18, 0x22, 0x20, 0xfe, 0x04, 0x6e, 0x15, 0x00, 0x24, 0x4d,
0x0e, 0xf8, 0x0b, 0x07, 0x00, 0xfe, 0x1e, 0x5f, 0xc1, 0x27, 0x34, 0x6b, 0xd9, 0x0a, 0xd9, 0x2e,
0x12, 0x28, 0xae, 0x1a, 0xdf, 0x1b, 0xf0, 0xed, 0xea, 0xa0, 0x46, 0x63, 0xb3, 0xd0, 0x3e, 0x49,
0x26, 0x6b, 0xc0, 0x2e, 0xcb, 0x6f, 0xe5, 0x3a, 0xdf, 0x81, 0x40, 0xec, 0xe3, 0xee, 0xf1, 0x1b,
0xe9, 0xcc, 0x54, 0xb9, 0xb8, 0x1d, 0x06, 0xb2, 0x2c, 0xe9, 0xdc, 0x81, 0x3f, 0x20, 0x5f, 0x98,
0x26, 0x5f, 0x6d, 0xb4, 0xfa, 0x0e, 0x5b, 0x95, 0xb2, 0xfa, 0x1e, 0x9d, 0x00, 0x18, 0x03, 0xcc,
0xbc, 0xe4, 0x0a, 0xc3, 0xe5, 0xfa, 0x54, 0xaa, 0xf9, 0x06, 0xfa, 0xd7, 0x9c, 0xc9, 0xce, 0xe1,
0x81, 0xd8, 0xeb, 0xe4, 0x85, 0xcc, 0xde, 0xf1, 0xaa, 0x14, 0x1c, 0xa1, 0x68, 0x4e, 0x79, 0xac,
0xca, 0x31, 0x3a, 0xd1, 0xf0, 0x28, 0x16, 0x32, 0x03, 0xeb, 0xd8, 0x30, 0xcb, 0xca, 0xbd, 0x95,
0x08, 0x21, 0xc9, 0x09, 0xde, 0xc6, 0x23, 0x00, 0x06, 0x25, 0x4a, 0x31, 0xf0, 0xad, 0xfb, 0xfd,
0x08, 0xbb, 0x25, 0x19, 0xb1, 0x00, 0xf3, 0x10, 0xcf, 0x09, 0xf4, 0x3a, 0x06, 0x0e, 0xe2, 0xdf,
0xf9, 0x7f, 0x01, 0x3a, 0xd0, 0x27, 0xf3, 0x4c, 0x2c, 0x5a, 0x14, 0xd4, 0x24, 0x7f, 0x4d, 0xe8,
0xc4, 0x3d, 0x56, 0xce, 0x17, 0x51, 0x17, 0x03, 0xef, 0x65, 0x14, 0x1a, 0x32, 0x2e, 0x67, 0x13,
0x43, 0x22, 0x08, 0x0a, 0x0e, 0x3e, 0x5d, 0xea, 0x38, 0x3e, 0x36, 0xdb, 0x20, 0x0f, 0x65, 0xb3,
0xcd, 0x32, 0xe0, 0x81, 0xe0, 0x2d, 0xb8, 0xd4, 0xdf, 0x43, 0xe9, 0xa8, 0xdd, 0x1c, 0xf1, 0xcd,
0x1b, 0x34, 0xdb, 0xc9, 0xe0, 0x58, 0x09, 0xa1, 0x18, 0x08, 0xe2, 0xe6, 0xf4, 0x72, 0xc0, 0xcd,
0x18, 0x22, 0xac, 0xd9, 0xf6, 0x1d, 0xdd, 0xff, 0xf4, 0x15, 0x1d, 0x38, 0xe1, 0x3d, 0xc3, 0x09,
0xe7, 0xdc, 0x16, 0x55, 0xe6, 0xe2, 0x20, 0x40, 0xd8, 0x3d, 0x02, 0x61, 0x14, 0x42, 0xdb, 0x41,
0x0b, 0xed, 0x05, 0x3e, 0xc6, 0x45, 0x12, 0x3d, 0x1c, 0x36, 0xda, 0x3c, 0xbf, 0xd5, 0x1c, 0x7f,
0x05, 0xe8, 0x33, 0xc5, 0xde, 0x41, 0x5d, 0xf1, 0xcf, 0x99, 0xa0, 0xfc, 0xbd, 0xa8, 0x15, 0xcb,
0x40, 0x70, 0x5a, 0x0e, 0xcb, 0xe4, 0x44, 0xeb, 0x43, 0x59, 0x46, 0x0c, 0xdc, 0xcc, 0x2a, 0xce,
0xdf, 0x10, 0xe9, 0xc8, 0x00, 0x3a, 0x7f, 0x9e, 0x2f, 0xf0, 0xd1, 0xd7, 0xe8, 0xff, 0xd0, 0xfb,
0x57, 0xf7, 0x96, 0xfa, 0xf6, 0x0b, 0xb9, 0x1f, 0x55, 0xf4, 0x2e, 0xef, 0x4d, 0xfe, 0x81, 0x1e,
0x3e, 0x22, 0xdd, 0xfd, 0xfc, 0xf5, 0x94, 0xde, 0x17, 0xf7, 0xd7, 0xe2, 0x45, 0xe7, 0xd1, 0x05,
0x69, 0xf5, 0x20, 0xb6, 0x25, 0xf1, 0x2c, 0x81, 0x40, 0xf1, 0xe7, 0xdf, 0xe8, 0x1e, 0x01, 0xc8,
0xf0, 0x14, 0x42, 0xbc, 0x24, 0x0c, 0x47, 0xbf, 0x1a, 0x0a, 0x35, 0x99, 0x5d, 0xfc, 0x2b, 0x90,
0x2f, 0x10, 0xdb, 0xd5, 0x51, 0xfa, 0x48, 0x8e, 0x04, 0xfd, 0xe7, 0xc9, 0x18, 0xf8, 0xf8, 0x89,
0xc5, 0xf9, 0xa3, 0xca, 0x07, 0xf4, 0x81, 0x04, 0x12, 0xf3, 0xc1, 0xd0, 0xcc, 0xfb, 0x99, 0xef,
0xef, 0xf2, 0xc2, 0xb0, 0x1d, 0xf0, 0x9d, 0xef, 0x11, 0xe7, 0xd4, 0xe8, 0xec, 0xf1, 0xda, 0xe6,
0xfd, 0x21, 0xe8, 0x98, 0xe3, 0x2b, 0x07, 0x94, 0xed, 0x17, 0x10, 0x94, 0xf7, 0x49, 0xfc, 0xdd,
0xb7, 0x3e, 0x11, 0x81, 0xc1, 0x26, 0x01, 0x9c, 0xf0, 0x42, 0x0b, 0x97, 0xc0, 0x4a, 0xe2, 0xa5,
0xcb, 0x2e, 0x00, 0xc9, 0xf3, 0x43, 0xc6, 0xd9, 0x27, 0xe8, 0x1f, 0xdf, 0x57, 0xe3, 0x09, 0x31,
0x13, 0xef, 0xfa, 0x38, 0x59, 0x16, 0x00, 0x89, 0x37, 0xd6, 0x64, 0xfb, 0x4d, 0xcc, 0x78, 0xca,
0x64, 0x1b, 0xd0, 0xc4, 0x66, 0xfc, 0x30, 0x81, 0x63, 0xf4, 0xf8, 0xb7, 0x33, 0xee, 0x33, 0xc7,
0xe5, 0x1c, 0x1d, 0x24, 0xc9, 0x51, 0x05, 0x1e, 0xb6, 0x3a, 0x0c, 0x1d, 0xba, 0x01, 0xfd, 0xf1,
0x12, 0xda, 0x27, 0x5b, 0x0b, 0x4a, 0xbd, 0xcf, 0xf0, 0xaa, 0x4b, 0x45, 0xb8, 0xa7, 0x41, 0x7f,
0x05, 0xd1, 0x1d, 0xd3, 0xf2, 0xdd, 0x42, 0xdb, 0xe2, 0xfb, 0xad, 0x1f, 0x2d, 0xda, 0xcf, 0xd0,
0x59, 0xda, 0xa7, 0x23, 0x71, 0x1c, 0xaf, 0x0d, 0x0a, 0xe1, 0xf0, 0x07, 0x48, 0x11, 0xae, 0x01,
0x0d, 0xff, 0x81, 0xc9, 0x51, 0x08, 0xf5, 0x1d, 0x78, 0x11, 0x92, 0xff, 0xed, 0xff, 0x07, 0xc2,
0xe4, 0x24, 0x0d, 0xea, 0xc5, 0x46, 0x0e, 0x26, 0xd4, 0xd0, 0xdd, 0x3c, 0x05, 0x5c, 0xdd, 0x1d,
0xf4, 0x06, 0x13, 0x48, 0x11, 0x81, 0xd6, 0x2b, 0xd5, 0x67, 0x3e, 0x2c, 0x00, 0x8d, 0xc7, 0x24,
0xe2, 0x4f, 0x2a, 0x0b, 0xc9, 0xe2, 0x1c, 0x1d, 0x24, 0xf3, 0x10, 0xc2, 0x44, 0xe6, 0xd0, 0xee,
0x4b, 0xfc, 0xce, 0xe7, 0x1b, 0x17, 0x0a, 0x9e, 0x4d, 0xfb, 0x14, 0x91, 0x22, 0x08, 0x09, 0xb0,
0x2c, 0x10, 0xdb, 0x04, 0x7f, 0x0a, 0xc1, 0xcf, 0x44, 0x20, 0xde, 0xd5, 0x34, 0xff, 0xe1, 0x19,
0x06, 0xe3, 0xbd, 0x11, 0x15, 0x81, 0x2c, 0xcd, 0xa3, 0xaf, 0x19, 0xf9, 0x9d, 0x51, 0xff, 0xfb,
0x1c, 0x53, 0x16, 0x26, 0xf9, 0xe4, 0x48, 0x64, 0xd7, 0x16, 0xe1, 0x31, 0x00, 0x1f, 0xf0, 0x03,
0xcf, 0x07, 0x1f, 0x67, 0xdf, 0xf7, 0xe5, 0x67, 0xed, 0x98, 0x63, 0x3d, 0xd1, 0x2d, 0xc6, 0x14,
0xef, 0xba, 0x31, 0x2f, 0xef, 0xbe, 0x40, 0x40, 0x15, 0x49, 0x81, 0x1b, 0xcd, 0xae, 0x1e, 0x61,
0xf3, 0x39, 0xbd, 0x79, 0x91, 0x25, 0x20, 0x55, 0x9c, 0x96, 0x15, 0x45, 0x93, 0x24, 0x31, 0x58,
0x07, 0x01, 0xf6, 0x27, 0xe2, 0xf8, 0x0a, 0x68, 0xe0, 0xf9, 0x0a, 0x7f, 0x13, 0xf9, 0xf2, 0x50,
0xfb, 0x05, 0xfc, 0x5c, 0xec, 0x07, 0x00, 0x7d, 0xfb, 0xfc, 0x0f, 0x5d, 0x04, 0xea, 0x0a, 0x35,
0xfc, 0x14, 0xe3, 0x3e, 0xf3, 0xf8, 0x04, 0x52, 0x1e, 0xfc, 0xff, 0xff, 0x04, 0x00, 0x00, 0x00,
0x80, 0x00, 0x00, 0x00, 0x3b, 0x1f, 0x00, 0x00, 0x2b, 0xff, 0xff, 0xff, 0xd4, 0x1d, 0x00, 0x00,
0xf4, 0x0c, 0x00, 0x00, 0x4a, 0xed, 0xff, 0xff, 0xf7, 0x1c, 0x00, 0x00, 0xd8, 0x1a, 0x00, 0x00,
0xc0, 0x07, 0x00, 0x00, 0x32, 0x02, 0x00, 0x00, 0xe8, 0xac, 0xff, 0xff, 0xea, 0xea, 0xff, 0xff,
0xea, 0xeb, 0xff, 0xff, 0x57, 0x2d, 0x00, 0x00, 0x32, 0xee, 0xff, 0xff, 0x3b, 0x29, 0x00, 0x00,
0xb3, 0x21, 0x00, 0x00, 0xc1, 0x8f, 0xff, 0xff, 0x8b, 0xb5, 0xff, 0xff, 0x46, 0x1d, 0x00, 0x00,
0x8f, 0xf4, 0xff, 0xff, 0xef, 0xd8, 0xff, 0xff, 0x86, 0xa2, 0xff, 0xff, 0x86, 0x11, 0x00, 0x00,
0xbf, 0xea, 0xff, 0xff, 0x23, 0x8b, 0xff, 0xff, 0x2d, 0x1f, 0x00, 0x00, 0xd9, 0xd9, 0xff, 0xff,
0x5f, 0x28, 0x00, 0x00, 0x9e, 0xa8, 0xff, 0xff, 0xdc, 0x21, 0x00, 0x00, 0x38, 0x26, 0x00, 0x00,
0xa0, 0x08, 0x00, 0x00, 0xaa, 0xfc, 0xff, 0xff, 0x04, 0x00, 0x00, 0x00, 0x00, 0x02, 0x00, 0x00,
0xd5, 0x92, 0xe7, 0x9a, 0x08, 0xdf, 0xcd, 0x30, 0xb6, 0x10, 0x02, 0xfa, 0x9c, 0xa4, 0xde, 0xa3,
0x20, 0xb2, 0xf3, 0x81, 0x0e, 0x16, 0xfc, 0xcb, 0x10, 0xa4, 0x13, 0x90, 0x15, 0xa6, 0x8f, 0x07,
0xdd, 0xf6, 0xf1, 0xf8, 0x37, 0xca, 0xc9, 0xd4, 0xb1, 0x4a, 0xff, 0x10, 0x93, 0x04, 0xb5, 0x81,
0x2b, 0xea, 0xc1, 0xe8, 0x16, 0x5e, 0xfb, 0x09, 0x3c, 0xe4, 0x04, 0x85, 0x48, 0xae, 0xb2, 0xfd,
0x3d, 0x2a, 0x5c, 0x28, 0xe0, 0x63, 0xe4, 0x6a, 0xea, 0xa3, 0x8b, 0x9a, 0x2e, 0x29, 0x35, 0x1b,
0x0d, 0xbc, 0xde, 0x1d, 0x24, 0xc9, 0x21, 0xdf, 0xaf, 0x00, 0x0c, 0x1b, 0x83, 0x18, 0x05, 0x81,
0x18, 0x1b, 0x14, 0x20, 0xa3, 0x3d, 0xc2, 0xf7, 0xb5, 0x39, 0xdf, 0x0a, 0xd6, 0x02, 0xd4, 0xa9,
0x27, 0xdb, 0xa2, 0x27, 0x81, 0x25, 0xb2, 0x86, 0x27, 0x3d, 0x9e, 0xdf, 0x02, 0xe0, 0xcc, 0x96,
0x51, 0x1f, 0x32, 0xfb, 0xeb, 0x49, 0xfb, 0x09, 0xe6, 0xb2, 0xad, 0x91, 0x18, 0xfe, 0x4f, 0x2f,
0x03, 0xc8, 0xdf, 0x0f, 0x0f, 0xd1, 0xf7, 0xf6, 0x81, 0x03, 0x19, 0x20, 0xa3, 0x1a, 0x24, 0xb0,
0x3c, 0x22, 0x37, 0x1e, 0x00, 0x60, 0x45, 0xf1, 0x5f, 0xdb, 0xfd, 0xfd, 0x76, 0xde, 0x57, 0x75,
0xda, 0x45, 0x0d, 0x13, 0xfc, 0xee, 0xf1, 0x29, 0xf8, 0x2a, 0xfd, 0x7f, 0xfa, 0x73, 0x5b, 0xf9,
0x67, 0x0b, 0x37, 0x01, 0xfb, 0x74, 0x07, 0x33, 0xe6, 0xc5, 0x81, 0x9b, 0x17, 0x01, 0x36, 0x29,
0x00, 0xac, 0xfe, 0x01, 0x10, 0xeb, 0xfd, 0xfc, 0x95, 0x02, 0x05, 0x22, 0xcd, 0x40, 0x22, 0xc6,
0xcc, 0x25, 0xd7, 0x10, 0xbf, 0xd3, 0xae, 0xe7, 0xec, 0x32, 0xea, 0x12, 0xe1, 0x19, 0x09, 0xe2,
0x14, 0x0c, 0xbf, 0x1c, 0x81, 0x24, 0xb8, 0xca, 0x18, 0x2c, 0x91, 0xf6, 0xfd, 0xe6, 0xb6, 0xa1,
0xaf, 0xf8, 0x81, 0x02, 0x00, 0xba, 0x87, 0x91, 0x56, 0x9f, 0x02, 0x0b, 0x4c, 0xb7, 0x88, 0x1f,
0xa1, 0xd7, 0x1b, 0xe9, 0xd2, 0xd6, 0x8f, 0xb2, 0x02, 0x2f, 0xe0, 0x1c, 0xf7, 0x3d, 0x37, 0x1d,
0x4f, 0x95, 0x11, 0x81, 0x84, 0x49, 0xf8, 0x5a, 0xb6, 0xf5, 0x00, 0x01, 0xed, 0xac, 0x5f, 0x05,
0xd1, 0xa5, 0x8e, 0xd2, 0x2a, 0x03, 0x31, 0xb6, 0xff, 0xa8, 0x2f, 0xed, 0xe5, 0x0c, 0xe6, 0xfd,
0x4d, 0x40, 0x21, 0x3f, 0xe3, 0x7f, 0xe3, 0x4c, 0xed, 0x1f, 0xe9, 0x07, 0x1b, 0x20, 0x67, 0x2e,
0x29, 0xf3, 0xe5, 0x50, 0xf9, 0x16, 0x03, 0xed, 0xfc, 0x48, 0xf8, 0x37, 0xe9, 0x2a, 0xfe, 0xe5,
0xb4, 0xcf, 0xaa, 0xdc, 0x3d, 0xbc, 0xd6, 0xd4, 0x16, 0xef, 0x4a, 0x1d, 0x0a, 0x81, 0xc0, 0xf0,
0xc4, 0x1f, 0x38, 0xbb, 0x0d, 0xf7, 0xed, 0x07, 0x19, 0x17, 0x13, 0xf8, 0x34, 0xf7, 0x10, 0x50,
0x9a, 0x2c, 0x81, 0x2f, 0xf6, 0xa8, 0x93, 0xc1, 0x5f, 0xff, 0xfc, 0xfe, 0x3f, 0xe2, 0xbb, 0x2e,
0xf0, 0xef, 0x0c, 0x28, 0xe8, 0x03, 0xa9, 0xb5, 0x08, 0x44, 0xe9, 0x20, 0xeb, 0x3c, 0x50, 0xf7,
0x29, 0xff, 0x15, 0x0c, 0x00, 0x4d, 0x0b, 0xf5, 0x37, 0xd0, 0xfc, 0xfc, 0x6b, 0xec, 0x46, 0x7d,
0xe0, 0x37, 0x0e, 0xfb, 0xfd, 0xe9, 0xfc, 0x42, 0xf5, 0x19, 0xfb, 0x7f, 0xf4, 0x6c, 0x75, 0xfd,
0xb9, 0x19, 0xfb, 0x15, 0x99, 0xa0, 0xa5, 0xc8, 0xd9, 0x50, 0xfe, 0x19, 0x9c, 0x02, 0xc3, 0x9a,
0x0f, 0xd8, 0x81, 0x0f, 0x99, 0x1d, 0xd5, 0xa4, 0x3d, 0x1d, 0xb6, 0xb4, 0x27, 0x9a, 0xa5, 0xcd,
0x9e, 0x08, 0x91, 0xfc, 0xfb, 0xc6, 0xd3, 0xb0, 0x58, 0xc3, 0x08, 0x04, 0x3b, 0xbb, 0xbf, 0x37,
0xa9, 0x7f, 0x1f, 0xe6, 0xf9, 0xdc, 0xe9, 0x33, 0xfa, 0x1a, 0xf6, 0x27, 0xf5, 0x5a, 0x4e, 0x02,
0xb6, 0xfe, 0xff, 0xff, 0x04, 0x00, 0x00, 0x00, 0x40, 0x00, 0x00, 0x00, 0xfd, 0x05, 0x00, 0x00,
0x35, 0x07, 0x00, 0x00, 0x65, 0x05, 0x00, 0x00, 0xc3, 0xff, 0xff, 0xff, 0x37, 0x05, 0x00, 0x00,
0x07, 0x03, 0x00, 0x00, 0xab, 0x04, 0x00, 0x00, 0x7f, 0xfe, 0xff, 0xff, 0x5e, 0x0a, 0x00, 0x00,
0x61, 0x0c, 0x00, 0x00, 0x27, 0x01, 0x00, 0x00, 0xb0, 0x06, 0x00, 0x00, 0xc2, 0x04, 0x00, 0x00,
0xb8, 0x03, 0x00, 0x00, 0xbf, 0x02, 0x00, 0x00, 0x71, 0x06, 0x00, 0x00, 0x02, 0xff, 0xff, 0xff,
0x04, 0x00, 0x00, 0x00, 0x40, 0x00, 0x00, 0x00, 0xed, 0x81, 0x3a, 0x11, 0x36, 0x23, 0x41, 0x0c,
0xb3, 0x1f, 0x13, 0xb1, 0xd3, 0x27, 0xb8, 0xf2, 0xc1, 0xfa, 0x81, 0xba, 0x85, 0x44, 0xd2, 0xe8,
0x73, 0x8f, 0xef, 0x33, 0x30, 0x50, 0x99, 0x73, 0xa9, 0x0e, 0x16, 0x3f, 0xce, 0xf6, 0xd9, 0x3e,
0xbe, 0x81, 0x14, 0xc2, 0x15, 0xd6, 0x38, 0xa1, 0x44, 0x1c, 0x0e, 0xd2, 0xc9, 0x81, 0xf0, 0xe0,
0xfc, 0x23, 0xbc, 0x1f, 0x99, 0xa2, 0xfa, 0xe9, 0x4e, 0xff, 0xff, 0xff, 0x04, 0x00, 0x00, 0x00,
0x10, 0x00, 0x00, 0x00, 0xc4, 0xf7, 0xff, 0xff, 0x61, 0xfd, 0xff, 0xff, 0xe1, 0xfb, 0xff, 0xff,
0x4c, 0x09, 0x00, 0x00, 0x38, 0xff, 0xff, 0xff, 0x3c, 0xff, 0xff, 0xff, 0x0f, 0x00, 0x00, 0x00,
0x4d, 0x4c, 0x49, 0x52, 0x20, 0x43, 0x6f, 0x6e, 0x76, 0x65, 0x72, 0x74, 0x65, 0x64, 0x2e, 0x00,
0x01, 0x00, 0x00, 0x00, 0x14, 0x00, 0x00, 0x00, 0x00, 0x00, 0x0e, 0x00, 0x18, 0x00, 0x14, 0x00,
0x10, 0x00, 0x0c, 0x00, 0x08, 0x00, 0x04, 0x00, 0x0e, 0x00, 0x00, 0x00, 0x14, 0x00, 0x00, 0x00,
0x1c, 0x00, 0x00, 0x00, 0x38, 0x01, 0x00, 0x00, 0x3c, 0x01, 0x00, 0x00, 0x40, 0x01, 0x00, 0x00,
0x04, 0x00, 0x00, 0x00, 0x6d, 0x61, 0x69, 0x6e, 0x00, 0x00, 0x00, 0x00, 0x04, 0x00, 0x00, 0x00,
0xe0, 0x00, 0x00, 0x00, 0x98, 0x00, 0x00, 0x00, 0x50, 0x00, 0x00, 0x00, 0x14, 0x00, 0x00, 0x00,
0x00, 0x00, 0x0e, 0x00, 0x1a, 0x00, 0x14, 0x00, 0x10, 0x00, 0x0c, 0x00, 0x0b, 0x00, 0x04, 0x00,
0x0e, 0x00, 0x00, 0x00, 0x1c, 0x00, 0x00, 0x00, 0x00, 0x00, 0x00, 0x09, 0x1c, 0x00, 0x00, 0x00,
0x20, 0x00, 0x00, 0x00, 0x01, 0x00, 0x00, 0x00, 0x00, 0x00, 0x06, 0x00, 0x08, 0x00, 0x04, 0x00,
0x06, 0x00, 0x00, 0x00, 0x00, 0x00, 0x80, 0x3f, 0x01, 0x00, 0x00, 0x00, 0x0a, 0x00, 0x00, 0x00,
0x01, 0x00, 0x00, 0x00, 0x09, 0x00, 0x00, 0x00, 0xca, 0xff, 0xff, 0xff, 0x14, 0x00, 0x00, 0x00,
0x00, 0x00, 0x00, 0x08, 0x10, 0x00, 0x00, 0x00, 0x14, 0x00, 0x00, 0x00, 0x04, 0x00, 0x04, 0x00,
0x04, 0x00, 0x00, 0x00, 0x01, 0x00, 0x00, 0x00, 0x09, 0x00, 0x00, 0x00, 0x03, 0x00, 0x00, 0x00,
0x08, 0x00, 0x00, 0x00, 0x02, 0x00, 0x00, 0x00, 0x01, 0x00, 0x00, 0x00, 0x00, 0x00, 0x0e, 0x00,
0x14, 0x00, 0x00, 0x00, 0x10, 0x00, 0x0c, 0x00, 0x0b, 0x00, 0x04, 0x00, 0x0e, 0x00, 0x00, 0x00,
0x10, 0x00, 0x00, 0x00, 0x00, 0x00, 0x00, 0x08, 0x10, 0x00, 0x00, 0x00, 0x14, 0x00, 0x00, 0x00,
0xba, 0xff, 0xff, 0xff, 0x00, 0x00, 0x00, 0x01, 0x01, 0x00, 0x00, 0x00, 0x08, 0x00, 0x00, 0x00,
0x03, 0x00, 0x00, 0x00, 0x07, 0x00, 0x00, 0x00, 0x04, 0x00, 0x00, 0x00, 0x03, 0x00, 0x00, 0x00,
0x00, 0x00, 0x0e, 0x00, 0x16, 0x00, 0x00, 0x00, 0x10, 0x00, 0x0c, 0x00, 0x0b, 0x00, 0x04, 0x00,
0x0e, 0x00, 0x00, 0x00, 0x18, 0x00, 0x00, 0x00, 0x00, 0x00, 0x00, 0x08, 0x18, 0x00, 0x00, 0x00,
0x1c, 0x00, 0x00, 0x00, 0x00, 0x00, 0x06, 0x00, 0x08, 0x00, 0x07, 0x00, 0x06, 0x00, 0x00, 0x00,
0x00, 0x00, 0x00, 0x01, 0x01, 0x00, 0x00, 0x00, 0x07, 0x00, 0x00, 0x00, 0x03, 0x00, 0x00, 0x00,
0x00, 0x00, 0x00, 0x00, 0x06, 0x00, 0x00, 0x00, 0x05, 0x00, 0x00, 0x00, 0x01, 0x00, 0x00, 0x00,
0x0a, 0x00, 0x00, 0x00, 0x01, 0x00, 0x00, 0x00, 0x00, 0x00, 0x00, 0x00, 0x0b, 0x00, 0x00, 0x00,
0xd0, 0x09, 0x00, 0x00, 0x30, 0x09, 0x00, 0x00, 0x8c, 0x08, 0x00, 0x00, 0x78, 0x07, 0x00, 0x00,
0x5c, 0x06, 0x00, 0x00, 0x88, 0x04, 0x00, 0x00, 0xac, 0x02, 0x00, 0x00, 0xe8, 0x01, 0x00, 0x00,
0x24, 0x01, 0x00, 0x00, 0x80, 0x00, 0x00, 0x00, 0x04, 0x00, 0x00, 0x00, 0x72, 0xf6, 0xff, 0xff,
0x00, 0x00, 0x00, 0x01, 0x18, 0x00, 0x00, 0x00, 0x20, 0x00, 0x00, 0x00, 0x3c, 0x00, 0x00, 0x00,
0x0b, 0x00, 0x00, 0x00, 0x00, 0x00, 0x00, 0x09, 0x50, 0x00, 0x00, 0x00, 0x02, 0x00, 0x00, 0x00,
0xff, 0xff, 0xff, 0xff, 0x04, 0x00, 0x00, 0x00, 0x5c, 0xf6, 0xff, 0xff, 0x08, 0x00, 0x00, 0x00,
0x10, 0x00, 0x00, 0x00, 0x01, 0x00, 0x00, 0x00, 0x80, 0xff, 0xff, 0xff, 0xff, 0xff, 0xff, 0xff,
0x01, 0x00, 0x00, 0x00, 0x00, 0x00, 0x80, 0x3b, 0x1b, 0x00, 0x00, 0x00, 0x53, 0x74, 0x61, 0x74,
0x65, 0x66, 0x75, 0x6c, 0x50, 0x61, 0x72, 0x74, 0x69, 0x74, 0x69, 0x6f, 0x6e, 0x65, 0x64, 0x43,
0x61, 0x6c, 0x6c, 0x5f, 0x31, 0x3a, 0x30, 0x00, 0x02, 0x00, 0x00, 0x00, 0x01, 0x00, 0x00, 0x00,
0x04, 0x00, 0x00, 0x00, 0xea, 0xf6, 0xff, 0xff, 0x00, 0x00, 0x00, 0x01, 0x18, 0x00, 0x00, 0x00,
0x20, 0x00, 0x00, 0x00, 0x3c, 0x00, 0x00, 0x00, 0x0a, 0x00, 0x00, 0x00, 0x00, 0x00, 0x00, 0x09,
0x78, 0x00, 0x00, 0x00, 0x02, 0x00, 0x00, 0x00, 0xff, 0xff, 0xff, 0xff, 0x04, 0x00, 0x00, 0x00,
0xd4, 0xf6, 0xff, 0xff, 0x08, 0x00, 0x00, 0x00, 0x10, 0x00, 0x00, 0x00, 0x01, 0x00, 0x00, 0x00,
0x18, 0x00, 0x00, 0x00, 0x00, 0x00, 0x00, 0x00, 0x01, 0x00, 0x00, 0x00, 0x39, 0xfc, 0x47, 0x3e,
0x42, 0x00, 0x00, 0x00, 0x73, 0x65, 0x71, 0x75, 0x65, 0x6e, 0x74, 0x69, 0x61, 0x6c, 0x5f, 0x39,
0x5f, 0x31, 0x2f, 0x64, 0x65, 0x6e, 0x73, 0x65, 0x5f, 0x33, 0x33, 0x5f, 0x31, 0x2f, 0x4d, 0x61,
0x74, 0x4d, 0x75, 0x6c, 0x3b, 0x73, 0x65, 0x71, 0x75, 0x65, 0x6e, 0x74, 0x69, 0x61, 0x6c, 0x5f,
0x39, 0x5f, 0x31, 0x2f, 0x64, 0x65, 0x6e, 0x73, 0x65, 0x5f, 0x33, 0x33, 0x5f, 0x31, 0x2f, 0x42,
0x69, 0x61, 0x73, 0x41, 0x64, 0x64, 0x00, 0x00, 0x02, 0x00, 0x00, 0x00, 0x01, 0x00, 0x00, 0x00,
0x04, 0x00, 0x00, 0x00, 0x8a, 0xf7, 0xff, 0xff, 0x00, 0x00, 0x00, 0x01, 0x18, 0x00, 0x00, 0x00,
0x20, 0x00, 0x00, 0x00, 0x3c, 0x00, 0x00, 0x00, 0x09, 0x00, 0x00, 0x00, 0x00, 0x00, 0x00, 0x09,
0x98, 0x00, 0x00, 0x00, 0x02, 0x00, 0x00, 0x00, 0xff, 0xff, 0xff, 0xff, 0x10, 0x00, 0x00, 0x00,
0x74, 0xf7, 0xff, 0xff, 0x08, 0x00, 0x00, 0x00, 0x10, 0x00, 0x00, 0x00, 0x01, 0x00, 0x00, 0x00,
0x80, 0xff, 0xff, 0xff, 0xff, 0xff, 0xff, 0xff, 0x01, 0x00, 0x00, 0x00, 0x50, 0x91, 0xf2, 0x3c,
0x61, 0x00, 0x00, 0x00, 0x73, 0x65, 0x71, 0x75, 0x65, 0x6e, 0x74, 0x69, 0x61, 0x6c, 0x5f, 0x39,
0x5f, 0x31, 0x2f, 0x64, 0x65, 0x6e, 0x73, 0x65, 0x5f, 0x33, 0x32, 0x5f, 0x31, 0x2f, 0x4d, 0x61,
0x74, 0x4d, 0x75, 0x6c, 0x3b, 0x73, 0x65, 0x71, 0x75, 0x65, 0x6e, 0x74, 0x69, 0x61, 0x6c, 0x5f,
0x39, 0x5f, 0x31, 0x2f, 0x64, 0x65, 0x6e, 0x73, 0x65, 0x5f, 0x33, 0x32, 0x5f, 0x31, 0x2f, 0x52,
0x65, 0x6c, 0x75, 0x3b, 0x73, 0x65, 0x71, 0x75, 0x65, 0x6e, 0x74, 0x69, 0x61, 0x6c, 0x5f, 0x39,
0x5f, 0x31, 0x2f, 0x64, 0x65, 0x6e, 0x73, 0x65, 0x5f, 0x33, 0x32, 0x5f, 0x31, 0x2f, 0x42, 0x69,
0x61, 0x73, 0x41, 0x64, 0x64, 0x00, 0x00, 0x00, 0x02, 0x00, 0x00, 0x00, 0x01, 0x00, 0x00, 0x00,
0x10, 0x00, 0x00, 0x00, 0x4a, 0xf8, 0xff, 0xff, 0x00, 0x00, 0x00, 0x01, 0x18, 0x00, 0x00, 0x00,
0x20, 0x00, 0x00, 0x00, 0x3c, 0x00, 0x00, 0x00, 0x08, 0x00, 0x00, 0x00, 0x00, 0x00, 0x00, 0x09,
0x98, 0x00, 0x00, 0x00, 0x02, 0x00, 0x00, 0x00, 0xff, 0xff, 0xff, 0xff, 0x20, 0x00, 0x00, 0x00,
0x34, 0xf8, 0xff, 0xff, 0x08, 0x00, 0x00, 0x00, 0x10, 0x00, 0x00, 0x00, 0x01, 0x00, 0x00, 0x00,
0x80, 0xff, 0xff, 0xff, 0xff, 0xff, 0xff, 0xff, 0x01, 0x00, 0x00, 0x00, 0x54, 0xd3, 0xb5, 0x3c,
0x61, 0x00, 0x00, 0x00, 0x73, 0x65, 0x71, 0x75, 0x65, 0x6e, 0x74, 0x69, 0x61, 0x6c, 0x5f, 0x39,
0x5f, 0x31, 0x2f, 0x64, 0x65, 0x6e, 0x73, 0x65, 0x5f, 0x33, 0x31, 0x5f, 0x31, 0x2f, 0x4d, 0x61,
0x74, 0x4d, 0x75, 0x6c, 0x3b, 0x73, 0x65, 0x71, 0x75, 0x65, 0x6e, 0x74, 0x69, 0x61, 0x6c, 0x5f,
0x39, 0x5f, 0x31, 0x2f, 0x64, 0x65, 0x6e, 0x73, 0x65, 0x5f, 0x33, 0x31, 0x5f, 0x31, 0x2f, 0x52,
0x65, 0x6c, 0x75, 0x3b, 0x73, 0x65, 0x71, 0x75, 0x65, 0x6e, 0x74, 0x69, 0x61, 0x6c, 0x5f, 0x39,
0x5f, 0x31, 0x2f, 0x64, 0x65, 0x6e, 0x73, 0x65, 0x5f, 0x33, 0x31, 0x5f, 0x31, 0x2f, 0x42, 0x69,
0x61, 0x73, 0x41, 0x64, 0x64, 0x00, 0x00, 0x00, 0x02, 0x00, 0x00, 0x00, 0x01, 0x00, 0x00, 0x00,
0x20, 0x00, 0x00, 0x00, 0xa6, 0xf9, 0xff, 0xff, 0x00, 0x00, 0x00, 0x01, 0x14, 0x00, 0x00, 0x00,
0xa8, 0x01, 0x00, 0x00, 0x07, 0x00, 0x00, 0x00, 0x00, 0x00, 0x00, 0x09, 0xb4, 0x01, 0x00, 0x00,
0xe4, 0xf8, 0xff, 0xff, 0x08, 0x00, 0x00, 0x00, 0x0c, 0x01, 0x00, 0x00, 0x20, 0x00, 0x00, 0x00,
0x00, 0x00, 0x00, 0x00, 0x00, 0x00, 0x00, 0x00, 0x00, 0x00, 0x00, 0x00, 0x00, 0x00, 0x00, 0x00,
0x00, 0x00, 0x00, 0x00, 0x00, 0x00, 0x00, 0x00, 0x00, 0x00, 0x00, 0x00, 0x00, 0x00, 0x00, 0x00,
0x00, 0x00, 0x00, 0x00, 0x00, 0x00, 0x00, 0x00, 0x00, 0x00, 0x00, 0x00, 0x00, 0x00, 0x00, 0x00,
0x00, 0x00, 0x00, 0x00, 0x00, 0x00, 0x00, 0x00, 0x00, 0x00, 0x00, 0x00, 0x00, 0x00, 0x00, 0x00,
0x00, 0x00, 0x00, 0x00, 0x00, 0x00, 0x00, 0x00, 0x00, 0x00, 0x00, 0x00, 0x00, 0x00, 0x00, 0x00,
0x00, 0x00, 0x00, 0x00, 0x00, 0x00, 0x00, 0x00, 0x00, 0x00, 0x00, 0x00, 0x00, 0x00, 0x00, 0x00,
0x00, 0x00, 0x00, 0x00, 0x00, 0x00, 0x00, 0x00, 0x00, 0x00, 0x00, 0x00, 0x00, 0x00, 0x00, 0x00,
0x00, 0x00, 0x00, 0x00, 0x00, 0x00, 0x00, 0x00, 0x00, 0x00, 0x00, 0x00, 0x00, 0x00, 0x00, 0x00,
0x00, 0x00, 0x00, 0x00, 0x00, 0x00, 0x00, 0x00, 0x00, 0x00, 0x00, 0x00, 0x00, 0x00, 0x00, 0x00,
0x00, 0x00, 0x00, 0x00, 0x00, 0x00, 0x00, 0x00, 0x00, 0x00, 0x00, 0x00, 0x00, 0x00, 0x00, 0x00,
0x00, 0x00, 0x00, 0x00, 0x00, 0x00, 0x00, 0x00, 0x00, 0x00, 0x00, 0x00, 0x00, 0x00, 0x00, 0x00,
0x00, 0x00, 0x00, 0x00, 0x00, 0x00, 0x00, 0x00, 0x00, 0x00, 0x00, 0x00, 0x00, 0x00, 0x00, 0x00,
0x00, 0x00, 0x00, 0x00, 0x00, 0x00, 0x00, 0x00, 0x00, 0x00, 0x00, 0x00, 0x00, 0x00, 0x00, 0x00,
0x00, 0x00, 0x00, 0x00, 0x00, 0x00, 0x00, 0x00, 0x00, 0x00, 0x00, 0x00, 0x00, 0x00, 0x00, 0x00,
0x00, 0x00, 0x00, 0x00, 0x00, 0x00, 0x00, 0x00, 0x00, 0x00, 0x00, 0x00, 0x00, 0x00, 0x00, 0x00,
0x00, 0x00, 0x00, 0x00, 0x00, 0x00, 0x00, 0x00, 0x00, 0x00, 0x00, 0x00, 0x00, 0x00, 0x00, 0x00,
0x00, 0x00, 0x00, 0x00, 0x20, 0x00, 0x00, 0x00, 0xe4, 0x0e, 0xb8, 0x3b, 0x02, 0xc2, 0x94, 0x3b,
0xf9, 0x90, 0xd1, 0x3b, 0x87, 0x38, 0x98, 0x3b, 0x33, 0xa6, 0x88, 0x3b, 0x9d, 0x83, 0xd1, 0x3b,
0x3e, 0x3e, 0xab, 0x3b, 0x1a, 0x6b, 0xc4, 0x3b, 0x99, 0x4e, 0xd5, 0x3b, 0x1a, 0x6e, 0x44, 0x3b,
0xcd, 0x1e, 0x9f, 0x3b, 0xbd, 0xe3, 0xb3, 0x3b, 0x3b, 0x30, 0x76, 0x3b, 0xdb, 0x4d, 0x91, 0x3b,
0x49, 0x0f, 0x84, 0x3b, 0x31, 0x9b, 0xa9, 0x3b, 0x68, 0xd3, 0x21, 0x3b, 0x28, 0x8b, 0x8c, 0x3b,
0x29, 0x41, 0xb7, 0x3b, 0x5e, 0x99, 0x79, 0x3b, 0x15, 0xd8, 0x4d, 0x3b, 0x9c, 0x02, 0x16, 0x3b,
0x23, 0xbe, 0x8e, 0x3b, 0x48, 0x78, 0xd6, 0x3b, 0x53, 0x97, 0x03, 0x3b, 0x4e, 0x2e, 0x8b, 0x3b,
0xd2, 0x39, 0x42, 0x3b, 0xad, 0x3a, 0x8b, 0x3b, 0x25, 0x10, 0x0d, 0x3b, 0xe6, 0x6d, 0x97, 0x3b,
0x23, 0x2b, 0x6e, 0x3b, 0x8e, 0x30, 0xf9, 0x3b, 0x12, 0x00, 0x00, 0x00, 0x74, 0x66, 0x6c, 0x2e,
0x70, 0x73, 0x65, 0x75, 0x64, 0x6f, 0x5f, 0x71, 0x63, 0x6f, 0x6e, 0x73, 0x74, 0x35, 0x00, 0x00,
0x02, 0x00, 0x00, 0x00, 0x20, 0x00, 0x00, 0x00, 0x28, 0x00, 0x00, 0x00, 0x7e, 0xfb, 0xff, 0xff,
0x00, 0x00, 0x00, 0x01, 0x14, 0x00, 0x00, 0x00, 0xa4, 0x01, 0x00, 0x00, 0x06, 0x00, 0x00, 0x00,
0x00, 0x00, 0x00, 0x02, 0xb0, 0x01, 0x00, 0x00, 0xbc, 0xfa, 0xff, 0xff, 0x08, 0x00, 0x00, 0x00,
0x08, 0x01, 0x00, 0x00, 0x20, 0x00, 0x00, 0x00, 0x00, 0x00, 0x00, 0x00, 0x00, 0x00, 0x00, 0x00,
0x00, 0x00, 0x00, 0x00, 0x00, 0x00, 0x00, 0x00, 0x00, 0x00, 0x00, 0x00, 0x00, 0x00, 0x00, 0x00,
0x00, 0x00, 0x00, 0x00, 0x00, 0x00, 0x00, 0x00, 0x00, 0x00, 0x00, 0x00, 0x00, 0x00, 0x00, 0x00,
0x00, 0x00, 0x00, 0x00, 0x00, 0x00, 0x00, 0x00, 0x00, 0x00, 0x00, 0x00, 0x00, 0x00, 0x00, 0x00,
0x00, 0x00, 0x00, 0x00, 0x00, 0x00, 0x00, 0x00, 0x00, 0x00, 0x00, 0x00, 0x00, 0x00, 0x00, 0x00,
0x00, 0x00, 0x00, 0x00, 0x00, 0x00, 0x00, 0x00, 0x00, 0x00, 0x00, 0x00, 0x00, 0x00, 0x00, 0x00,
0x00, 0x00, 0x00, 0x00, 0x00, 0x00, 0x00, 0x00, 0x00, 0x00, 0x00, 0x00, 0x00, 0x00, 0x00, 0x00,
0x00, 0x00, 0x00, 0x00, 0x00, 0x00, 0x00, 0x00, 0x00, 0x00, 0x00, 0x00, 0x00, 0x00, 0x00, 0x00,
0x00, 0x00, 0x00, 0x00, 0x00, 0x00, 0x00, 0x00, 0x00, 0x00, 0x00, 0x00, 0x00, 0x00, 0x00, 0x00,
0x00, 0x00, 0x00, 0x00, 0x00, 0x00, 0x00, 0x00, 0x00, 0x00, 0x00, 0x00, 0x00, 0x00, 0x00, 0x00,
0x00, 0x00, 0x00, 0x00, 0x00, 0x00, 0x00, 0x00, 0x00, 0x00, 0x00, 0x00, 0x00, 0x00, 0x00, 0x00,
0x00, 0x00, 0x00, 0x00, 0x00, 0x00, 0x00, 0x00, 0x00, 0x00, 0x00, 0x00, 0x00, 0x00, 0x00, 0x00,
0x00, 0x00, 0x00, 0x00, 0x00, 0x00, 0x00, 0x00, 0x00, 0x00, 0x00, 0x00, 0x00, 0x00, 0x00, 0x00,
0x00, 0x00, 0x00, 0x00, 0x00, 0x00, 0x00, 0x00, 0x00, 0x00, 0x00, 0x00, 0x00, 0x00, 0x00, 0x00,
0x00, 0x00, 0x00, 0x00, 0x00, 0x00, 0x00, 0x00, 0x00, 0x00, 0x00, 0x00, 0x00, 0x00, 0x00, 0x00,
0x00, 0x00, 0x00, 0x00, 0x00, 0x00, 0x00, 0x00, 0x00, 0x00, 0x00, 0x00, 0x00, 0x00, 0x00, 0x00,
0x00, 0x00, 0x00, 0x00, 0x00, 0x00, 0x00, 0x00, 0x20, 0x00, 0x00, 0x00, 0xc2, 0x30, 0xb4, 0x38,
0xc6, 0xa1, 0x91, 0x38, 0x9f, 0x29, 0xcd, 0x38, 0xaa, 0x05, 0x95, 0x38, 0x1a, 0xc7, 0x85, 0x38,
0x8b, 0x1c, 0xcd, 0x38, 0x0c, 0xa5, 0xa7, 0x38, 0x7a, 0x4a, 0xc0, 0x38, 0x1f, 0xd3, 0xd0, 0x38,
0x6a, 0x4d, 0x40, 0x38, 0xd2, 0xc6, 0x9b, 0x38, 0x08, 0x1c, 0xb0, 0x38, 0xdf, 0x03, 0x71, 0x38,
0x33, 0x40, 0x8e, 0x38, 0xe0, 0x48, 0x81, 0x38, 0xcd, 0x0a, 0xa6, 0x38, 0xdf, 0x6c, 0x1e, 0x38,
0x1c, 0x97, 0x89, 0x38, 0x5a, 0x67, 0xb3, 0x38, 0xa9, 0x5a, 0x74, 0x38, 0xc1, 0x84, 0x49, 0x38,
0xa3, 0xdb, 0x12, 0x38, 0x42, 0xbe, 0x8b, 0x38, 0x8d, 0xf6, 0xd1, 0x38, 0x70, 0xd3, 0x00, 0x38,
0x96, 0x41, 0x88, 0x38, 0xfe, 0x24, 0x3e, 0x38, 0xb3, 0x4d, 0x88, 0x38, 0x4d, 0x19, 0x0a, 0x38,
0x4b, 0x3f, 0x94, 0x38, 0xeb, 0x29, 0x69, 0x38, 0x0d, 0xf4, 0xf3, 0x38, 0x12, 0x00, 0x00, 0x00,
0x74, 0x66, 0x6c, 0x2e, 0x70, 0x73, 0x65, 0x75, 0x64, 0x6f, 0x5f, 0x71, 0x63, 0x6f, 0x6e, 0x73,
0x74, 0x34, 0x00, 0x00, 0x01, 0x00, 0x00, 0x00, 0x20, 0x00, 0x00, 0x00, 0x4e, 0xfd, 0xff, 0xff,
0x00, 0x00, 0x00, 0x01, 0x14, 0x00, 0x00, 0x00, 0xe8, 0x00, 0x00, 0x00, 0x05, 0x00, 0x00, 0x00,
0x00, 0x00, 0x00, 0x09, 0xf4, 0x00, 0x00, 0x00, 0x8c, 0xfc, 0xff, 0xff, 0x08, 0x00, 0x00, 0x00,
0x8c, 0x00, 0x00, 0x00, 0x10, 0x00, 0x00, 0x00, 0x00, 0x00, 0x00, 0x00, 0x00, 0x00, 0x00, 0x00,
0x00, 0x00, 0x00, 0x00, 0x00, 0x00, 0x00, 0x00, 0x00, 0x00, 0x00, 0x00, 0x00, 0x00, 0x00, 0x00,
0x00, 0x00, 0x00, 0x00, 0x00, 0x00, 0x00, 0x00, 0x00, 0x00, 0x00, 0x00, 0x00, 0x00, 0x00, 0x00,
0x00, 0x00, 0x00, 0x00, 0x00, 0x00, 0x00, 0x00, 0x00, 0x00, 0x00, 0x00, 0x00, 0x00, 0x00, 0x00,
0x00, 0x00, 0x00, 0x00, 0x00, 0x00, 0x00, 0x00, 0x00, 0x00, 0x00, 0x00, 0x00, 0x00, 0x00, 0x00,
0x00, 0x00, 0x00, 0x00, 0x00, 0x00, 0x00, 0x00, 0x00, 0x00, 0x00, 0x00, 0x00, 0x00, 0x00, 0x00,
0x00, 0x00, 0x00, 0x00, 0x00, 0x00, 0x00, 0x00, 0x00, 0x00, 0x00, 0x00, 0x00, 0x00, 0x00, 0x00,
0x00, 0x00, 0x00, 0x00, 0x00, 0x00, 0x00, 0x00, 0x00, 0x00, 0x00, 0x00, 0x00, 0x00, 0x00, 0x00,
0x00, 0x00, 0x00, 0x00, 0x00, 0x00, 0x00, 0x00, 0x00, 0x00, 0x00, 0x00, 0x10, 0x00, 0x00, 0x00,
0xb7, 0xf2, 0x15, 0x3c, 0x3e, 0x71, 0x07, 0x3c, 0x09, 0xc0, 0xc7, 0x3b, 0x69, 0x9d, 0x0e, 0x3c,
0xc4, 0xba, 0x0f, 0x3c, 0xf2, 0x56, 0x37, 0x3c, 0xf2, 0x9c, 0x02, 0x3c, 0xca, 0x48, 0x2b, 0x3c,
0x1e, 0xbf, 0xf4, 0x3b, 0x41, 0xff, 0xcf, 0x3b, 0x8e, 0xa5, 0x1f, 0x3c, 0x26, 0xba, 0x22, 0x3c,
0x90, 0x75, 0x1f, 0x3c, 0xd5, 0xa4, 0x48, 0x3c, 0x75, 0x5f, 0x08, 0x3c, 0xc8, 0x87, 0x0f, 0x3c,
0x12, 0x00, 0x00, 0x00, 0x74, 0x66, 0x6c, 0x2e, 0x70, 0x73, 0x65, 0x75, 0x64, 0x6f, 0x5f, 0x71,
0x63, 0x6f, 0x6e, 0x73, 0x74, 0x33, 0x00, 0x00, 0x02, 0x00, 0x00, 0x00, 0x10, 0x00, 0x00, 0x00,
0x20, 0x00, 0x00, 0x00, 0x66, 0xfe, 0xff, 0xff, 0x00, 0x00, 0x00, 0x01, 0x14, 0x00, 0x00, 0x00,
0xe4, 0x00, 0x00, 0x00, 0x04, 0x00, 0x00, 0x00, 0x00, 0x00, 0x00, 0x02, 0xf0, 0x00, 0x00, 0x00,
0xa4, 0xfd, 0xff, 0xff, 0x08, 0x00, 0x00, 0x00, 0x88, 0x00, 0x00, 0x00, 0x10, 0x00, 0x00, 0x00,
0x00, 0x00, 0x00, 0x00, 0x00, 0x00, 0x00, 0x00, 0x00, 0x00, 0x00, 0x00, 0x00, 0x00, 0x00, 0x00,
0x00, 0x00, 0x00, 0x00, 0x00, 0x00, 0x00, 0x00, 0x00, 0x00, 0x00, 0x00, 0x00, 0x00, 0x00, 0x00,
0x00, 0x00, 0x00, 0x00, 0x00, 0x00, 0x00, 0x00, 0x00, 0x00, 0x00, 0x00, 0x00, 0x00, 0x00, 0x00,
0x00, 0x00, 0x00, 0x00, 0x00, 0x00, 0x00, 0x00, 0x00, 0x00, 0x00, 0x00, 0x00, 0x00, 0x00, 0x00,
0x00, 0x00, 0x00, 0x00, 0x00, 0x00, 0x00, 0x00, 0x00, 0x00, 0x00, 0x00, 0x00, 0x00, 0x00, 0x00,
0x00, 0x00, 0x00, 0x00, 0x00, 0x00, 0x00, 0x00, 0x00, 0x00, 0x00, 0x00, 0x00, 0x00, 0x00, 0x00,
0x00, 0x00, 0x00, 0x00, 0x00, 0x00, 0x00, 0x00, 0x00, 0x00, 0x00, 0x00, 0x00, 0x00, 0x00, 0x00,
0x00, 0x00, 0x00, 0x00, 0x00, 0x00, 0x00, 0x00, 0x00, 0x00, 0x00, 0x00, 0x00, 0x00, 0x00, 0x00,
0x10, 0x00, 0x00, 0x00, 0xc7, 0x00, 0x55, 0x39, 0xbf, 0x65, 0x40, 0x39, 0xab, 0xdf, 0x0d, 0x39,
0x0c, 0x96, 0x4a, 0x39, 0x65, 0x2b, 0x4c, 0x39, 0xd2, 0x37, 0x82, 0x39, 0x93, 0x89, 0x39, 0x39,
0xb8, 0x4f, 0x73, 0x39, 0x2a, 0xd5, 0x2d, 0x39, 0x2d, 0xbb, 0x13, 0x39, 0xae, 0xc7, 0x62, 0x39,
0xe3, 0x27, 0x67, 0x39, 0x82, 0x83, 0x62, 0x39, 0x2c, 0x82, 0x8e, 0x39, 0x22, 0xb8, 0x41, 0x39,
0xf9, 0xe2, 0x4b, 0x39, 0x12, 0x00, 0x00, 0x00, 0x74, 0x66, 0x6c, 0x2e, 0x70, 0x73, 0x65, 0x75,
0x64, 0x6f, 0x5f, 0x71, 0x63, 0x6f, 0x6e, 0x73, 0x74, 0x32, 0x00, 0x00, 0x01, 0x00, 0x00, 0x00,
0x10, 0x00, 0x00, 0x00, 0x76, 0xff, 0xff, 0xff, 0x00, 0x00, 0x00, 0x01, 0x14, 0x00, 0x00, 0x00,
0x58, 0x00, 0x00, 0x00, 0x03, 0x00, 0x00, 0x00, 0x00, 0x00, 0x00, 0x09, 0x64, 0x00, 0x00, 0x00,
0xb4, 0xfe, 0xff, 0xff, 0x08, 0x00, 0x00, 0x00, 0x2c, 0x00, 0x00, 0x00, 0x04, 0x00, 0x00, 0x00,
0x00, 0x00, 0x00, 0x00, 0x00, 0x00, 0x00, 0x00, 0x00, 0x00, 0x00, 0x00, 0x00, 0x00, 0x00, 0x00,
0x00, 0x00, 0x00, 0x00, 0x00, 0x00, 0x00, 0x00, 0x00, 0x00, 0x00, 0x00, 0x00, 0x00, 0x00, 0x00,
0x00, 0x00, 0x00, 0x00, 0x04, 0x00, 0x00, 0x00, 0x7f, 0xe3, 0x78, 0x3c, 0xa6, 0xd9, 0xfa, 0x3b,
0x14, 0x07, 0x94, 0x3c, 0xf5, 0x4f, 0x7e, 0x3c, 0x12, 0x00, 0x00, 0x00, 0x74, 0x66, 0x6c, 0x2e,
0x70, 0x73, 0x65, 0x75, 0x64, 0x6f, 0x5f, 0x71, 0x63, 0x6f, 0x6e, 0x73, 0x74, 0x31, 0x00, 0x00,
0x02, 0x00, 0x00, 0x00, 0x04, 0x00, 0x00, 0x00, 0x10, 0x00, 0x00, 0x00, 0x00, 0x00, 0x16, 0x00,
0x1c, 0x00, 0x18, 0x00, 0x17, 0x00, 0x10, 0x00, 0x0c, 0x00, 0x08, 0x00, 0x00, 0x00, 0x00, 0x00,
0x00, 0x00, 0x07, 0x00, 0x16, 0x00, 0x00, 0x00, 0x00, 0x00, 0x00, 0x01, 0x14, 0x00, 0x00, 0x00,
0x58, 0x00, 0x00, 0x00, 0x02, 0x00, 0x00, 0x00, 0x00, 0x00, 0x00, 0x02, 0x64, 0x00, 0x00, 0x00,
0x54, 0xff, 0xff, 0xff, 0x08, 0x00, 0x00, 0x00, 0x2c, 0x00, 0x00, 0x00, 0x04, 0x00, 0x00, 0x00,
0x00, 0x00, 0x00, 0x00, 0x00, 0x00, 0x00, 0x00, 0x00, 0x00, 0x00, 0x00, 0x00, 0x00, 0x00, 0x00,
0x00, 0x00, 0x00, 0x00, 0x00, 0x00, 0x00, 0x00, 0x00, 0x00, 0x00, 0x00, 0x00, 0x00, 0x00, 0x00,
0x00, 0x00, 0x00, 0x00, 0x04, 0x00, 0x00, 0x00, 0x55, 0xd4, 0xeb, 0x39, 0x23, 0xb0, 0x6d, 0x39,
0xb7, 0x42, 0x0c, 0x3a, 0xf0, 0xf7, 0xf0, 0x39, 0x11, 0x00, 0x00, 0x00, 0x74, 0x66, 0x6c, 0x2e,
0x70, 0x73, 0x65, 0x75, 0x64, 0x6f, 0x5f, 0x71, 0x63, 0x6f, 0x6e, 0x73, 0x74, 0x00, 0x00, 0x00,
0x01, 0x00, 0x00, 0x00, 0x04, 0x00, 0x00, 0x00, 0x00, 0x00, 0x16, 0x00, 0x20, 0x00, 0x1c, 0x00,
0x1b, 0x00, 0x14, 0x00, 0x10, 0x00, 0x0c, 0x00, 0x00, 0x00, 0x00, 0x00, 0x08, 0x00, 0x07, 0x00,
0x16, 0x00, 0x00, 0x00, 0x00, 0x00, 0x00, 0x01, 0x18, 0x00, 0x00, 0x00, 0x2c, 0x00, 0x00, 0x00,
0x4c, 0x00, 0x00, 0x00, 0x01, 0x00, 0x00, 0x00, 0x00, 0x00, 0x00, 0x09, 0x68, 0x00, 0x00, 0x00,
0x02, 0x00, 0x00, 0x00, 0xff, 0xff, 0xff, 0xff, 0x28, 0x00, 0x00, 0x00, 0x0c, 0x00, 0x0c, 0x00,
0x00, 0x00, 0x00, 0x00, 0x08, 0x00, 0x04, 0x00, 0x0c, 0x00, 0x00, 0x00, 0x08, 0x00, 0x00, 0x00,
0x14, 0x00, 0x00, 0x00, 0x01, 0x00, 0x00, 0x00, 0x0f, 0x00, 0x00, 0x00, 0x00, 0x00, 0x00, 0x00,
0x00, 0x00, 0x00, 0x00, 0x01, 0x00, 0x00, 0x00, 0xdc, 0x9e, 0x7a, 0x3c, 0x21, 0x00, 0x00, 0x00,
0x73, 0x65, 0x72, 0x76, 0x69, 0x6e, 0x67, 0x5f, 0x64, 0x65, 0x66, 0x61, 0x75, 0x6c, 0x74, 0x5f,
0x6b, 0x65, 0x72, 0x61, 0x73, 0x5f, 0x74, 0x65, 0x6e, 0x73, 0x6f, 0x72, 0x5f, 0x37, 0x35, 0x3a,
0x30, 0x00, 0x00, 0x00, 0x02, 0x00, 0x00, 0x00, 0x01, 0x00, 0x00, 0x00, 0x28, 0x00, 0x00, 0x00,
0x02, 0x00, 0x00, 0x00, 0x24, 0x00, 0x00, 0x00, 0x04, 0x00, 0x00, 0x00, 0xf0, 0xff, 0xff, 0xff,
0x19, 0x00, 0x00, 0x00, 0x02, 0x00, 0x00, 0x00, 0x00, 0x00, 0x00, 0x19, 0x0c, 0x00, 0x10, 0x00,
0x0f, 0x00, 0x00, 0x00, 0x08, 0x00, 0x04, 0x00, 0x0c, 0x00, 0x00, 0x00, 0x09, 0x00, 0x00, 0x00,
0x04, 0x00, 0x00, 0x00, 0x00, 0x00, 0x00, 0x09
};
const unsigned int fire_model_data_len = 5736;
